0001100010
0110101000
1110101100
1100100100
1110000000
1000110110
0101111011
1010011111
0010110010
1110101000
0000001110
0110010100
1101000100
0011110111
1000111011
1100010001
1010000010
0010110011
0011101010
1111010010
0000111101
1111011110
1101001001
1011110110
0111000110
0110011100
1001101111
0010111011
1001101011
1011111111
1011001101
0101001011
0101110100
1111111011
0001110110
0101100011
1111000101
0000000101
1010111001
0110101111
0100101000
1110010011
1001110101
1111011011
0111010010
0110101100
0010011110
0001000010
1011011011
0001110111
1011001011
1101001001
0111011100
1001010010
1011111111
0001110101
0011001010
1000100000
1111001001
1000000010
1001111100
1101010101
1100001110
0101100110
1110110111
0010111110
0100011110
1011111011
0110001001
1111000010
0010101101
0111001100
0100100100
0011010000
1110110001
0100010111
0011010000
1011101111
1010100111
1110010000
0111011010
1011011100
1010001100
0010111000
1111001011
0001100011
1000010110
1001110111
1010011010
1011011011
0001110101
1111100111
0111110101
1101011010
1001010001
0110101110
1001010000
1001111111
0000011110
1010101101
1000011101
0100011110
1111101111
0001110010
0111111000
0001011001
0101100011
0110101001
0100011110
1100100101
1110100001
0000111101
1100111011
0110000110
0001000001
1000111110
0001011110
0011010010
1100110101
1110110100
0000011010
0110101011
0001010001
1011111011
0111001011
0101111011
1000100111
0110101100
1100111111
